{
  "vocab_size": 1024,
  "special_tokens": [
    "[PAD]",
    "[UNK]",
    "[H]",
    "[A]",
    "[END]"
  ],
  "base_chars": [
    "!",
    ".",
    "a",
    "b",
    "c",
    "d",
    "e",
    "f",
    "g",
    "h",
    "i",
    "j",
    "k",
    "l",
    "m",
    "n",
    "o",
    "p",
    "q",
    "r",
    "s",
    "t",
    "u",
    "v",
    "w",
    "x",
    "y"
  ],
  "merges": [
    [
      "o",
      "u"
    ],
    [
      "t",
      "h"
    ],
    [
      "r",
      "e"
    ],
    [
      "y",
      "ou"
    ],
    [
      "i",
      "n"
    ],
    [
      "a",
      "t"
    ],
    [
      "i",
      "s"
    ],
    [
      "w",
      "e"
    ],
    [
      "in",
      "g"
    ],
    [
      "a",
      "n"
    ],
    [
      "s",
      "t"
    ],
    [
      "e",
      "r"
    ],
    [
      "n",
      "o"
    ],
    [
      "e",
      "e"
    ],
    [
      "d",
      "o"
    ],
    [
      "th",
      "e"
    ],
    [
      "w",
      "h"
    ],
    [
      "a",
      "re"
    ],
    [
      "e",
      "s"
    ],
    [
      "no",
      "t"
    ],
    [
      "t",
      "."
    ],
    [
      "you",
      "r"
    ],
    [
      "o",
      "re"
    ],
    [
      "t",
      "o"
    ],
    [
      "o",
      "n"
    ],
    [
      "l",
      "l"
    ],
    [
      "th",
      "at"
    ],
    [
      "m",
      "ore"
    ],
    [
      "m",
      "e"
    ],
    [
      "v",
      "e"
    ],
    [
      "o",
      "p"
    ],
    [
      "l",
      "e"
    ],
    [
      "h",
      "a"
    ],
    [
      "o",
      "r"
    ],
    [
      "more",
      "."
    ],
    [
      "s",
      "o"
    ],
    [
      "g",
      "o"
    ],
    [
      "st",
      "op"
    ],
    [
      "u",
      "s"
    ],
    [
      "e",
      "n"
    ],
    [
      "wh",
      "at"
    ],
    [
      "th",
      "is"
    ],
    [
      "ing",
      "."
    ],
    [
      "h",
      "e"
    ],
    [
      "i",
      "f"
    ],
    [
      "y",
      "es"
    ],
    [
      "ee",
      "p"
    ],
    [
      "i",
      "t."
    ],
    [
      "i",
      "t"
    ],
    [
      "v",
      "er"
    ],
    [
      "w",
      "i"
    ],
    [
      "b",
      "e"
    ],
    [
      "k",
      "e"
    ],
    [
      "c",
      "an"
    ],
    [
      "f",
      "ee"
    ],
    [
      "a",
      "m"
    ],
    [
      "u",
      "r"
    ],
    [
      "e",
      "ver"
    ],
    [
      "stop",
      "."
    ],
    [
      "wi",
      "ll"
    ],
    [
      "c",
      "e"
    ],
    [
      "i",
      "g"
    ],
    [
      "a",
      "y"
    ],
    [
      "f",
      "or"
    ],
    [
      "yes",
      "."
    ],
    [
      "m",
      "p"
    ],
    [
      "ou",
      "t"
    ],
    [
      "j",
      "u"
    ],
    [
      "s",
      "."
    ],
    [
      "ever",
      "y"
    ],
    [
      "er",
      "."
    ],
    [
      "u",
      "t"
    ],
    [
      "ha",
      "ve"
    ],
    [
      "ee",
      "d"
    ],
    [
      "i",
      "d"
    ],
    [
      "ha",
      "r"
    ],
    [
      "w",
      "an"
    ],
    [
      "i",
      "ve"
    ],
    [
      "a",
      "ke"
    ],
    [
      "us",
      "h"
    ],
    [
      "p",
      "ush"
    ],
    [
      "at",
      "t"
    ],
    [
      "o",
      "f"
    ],
    [
      "c",
      "h"
    ],
    [
      "har",
      "d"
    ],
    [
      "k",
      "eep"
    ],
    [
      "g",
      "ive"
    ],
    [
      "fee",
      "l"
    ],
    [
      "on",
      "e"
    ],
    [
      "wan",
      "t"
    ],
    [
      "wh",
      "en"
    ],
    [
      "n",
      "eed"
    ],
    [
      "you",
      "."
    ],
    [
      "ou",
      "r"
    ],
    [
      "a",
      "r"
    ],
    [
      "an",
      "y"
    ],
    [
      "the",
      "re"
    ],
    [
      "le",
      "a"
    ],
    [
      "th",
      "ing"
    ],
    [
      "o",
      "d"
    ],
    [
      "i",
      "mp"
    ],
    [
      "a",
      "l"
    ],
    [
      "s",
      "e"
    ],
    [
      "on",
      "g"
    ],
    [
      "me",
      "an"
    ],
    [
      "y",
      "."
    ],
    [
      "th",
      "ing."
    ],
    [
      "d",
      "eep"
    ],
    [
      "hard",
      "er."
    ],
    [
      "ut",
      "if"
    ],
    [
      "utif",
      "u"
    ],
    [
      "utifu",
      "l"
    ],
    [
      "be",
      "a"
    ],
    [
      "bea",
      "utiful"
    ],
    [
      "wh",
      "y"
    ],
    [
      "p",
      "e"
    ],
    [
      "p",
      "o"
    ],
    [
      "deep",
      "."
    ],
    [
      "d",
      "ig"
    ],
    [
      "i",
      "ce"
    ],
    [
      "that",
      "."
    ],
    [
      "e",
      "t"
    ],
    [
      "p",
      "u"
    ],
    [
      "he",
      "at"
    ],
    [
      "m",
      "y"
    ],
    [
      "i",
      "ke"
    ],
    [
      "he",
      "re"
    ],
    [
      "st",
      "ay"
    ],
    [
      "on",
      "."
    ],
    [
      "go",
      "ing."
    ],
    [
      "ju",
      "st"
    ],
    [
      "m",
      "u"
    ],
    [
      "a",
      "ll"
    ],
    [
      "l",
      "if"
    ],
    [
      "lif",
      "e"
    ],
    [
      "u",
      "ll"
    ],
    [
      "f",
      "ull"
    ],
    [
      "ur",
      "re"
    ],
    [
      "urre",
      "n"
    ],
    [
      "c",
      "urren"
    ],
    [
      "an",
      "k"
    ],
    [
      "we",
      "r"
    ],
    [
      "po",
      "wer"
    ],
    [
      "st",
      "e"
    ],
    [
      "le",
      "."
    ],
    [
      "o",
      "w"
    ],
    [
      "w",
      "or"
    ],
    [
      "ju",
      "ice"
    ],
    [
      "go",
      "es"
    ],
    [
      "an",
      "d"
    ],
    [
      "w",
      "att"
    ],
    [
      "re",
      "st"
    ],
    [
      "b",
      "ike"
    ],
    [
      "mean",
      "s"
    ],
    [
      "er",
      "g"
    ],
    [
      "en",
      "erg"
    ],
    [
      "us",
      "."
    ],
    [
      "do",
      "es"
    ],
    [
      "wor",
      "k"
    ],
    [
      "m",
      "ake"
    ],
    [
      "for",
      "ce"
    ],
    [
      "ur",
      "n"
    ],
    [
      "p",
      "er"
    ],
    [
      "every",
      "one"
    ],
    [
      "l",
      "o"
    ],
    [
      "l",
      "ong"
    ],
    [
      "t",
      "ake"
    ],
    [
      "ig",
      "h"
    ],
    [
      "id",
      "e"
    ],
    [
      "b",
      "od"
    ],
    [
      "u",
      "n"
    ],
    [
      "le",
      "t"
    ],
    [
      "igh",
      "t"
    ],
    [
      "fee",
      "d"
    ],
    [
      "so",
      "me"
    ],
    [
      "o",
      "m"
    ],
    [
      "no",
      "w"
    ],
    [
      "in",
      "k"
    ],
    [
      "bod",
      "y"
    ],
    [
      "h",
      "ow"
    ],
    [
      "o",
      "k"
    ],
    [
      "v",
      "es"
    ],
    [
      "d",
      "r"
    ],
    [
      "mu",
      "ch"
    ],
    [
      "th",
      "ank"
    ],
    [
      "p",
      "r"
    ],
    [
      "s",
      "imp"
    ],
    [
      "simp",
      "le."
    ],
    [
      "c",
      "are"
    ],
    [
      "a",
      "b"
    ],
    [
      "u",
      "f"
    ],
    [
      "uf",
      "f"
    ],
    [
      "uff",
      "er"
    ],
    [
      "s",
      "uffer"
    ],
    [
      "t",
      "e"
    ],
    [
      "of",
      "f"
    ],
    [
      "e",
      "at"
    ],
    [
      "go",
      "ing"
    ],
    [
      "t",
      "a"
    ],
    [
      "g",
      "s"
    ],
    [
      "g",
      "et"
    ],
    [
      "a",
      "c"
    ],
    [
      "e",
      "c"
    ],
    [
      "suffer",
      "ing"
    ],
    [
      "beautiful",
      "."
    ],
    [
      "i",
      "re"
    ],
    [
      "f",
      "a"
    ],
    [
      "he",
      "ar"
    ],
    [
      "p",
      "p"
    ],
    [
      "d",
      "e"
    ],
    [
      "in",
      "to"
    ],
    [
      "d",
      "ay"
    ],
    [
      "day",
      "."
    ],
    [
      "no",
      "thing."
    ],
    [
      "every",
      "thing."
    ],
    [
      "g",
      "r"
    ],
    [
      "some",
      "thing"
    ],
    [
      "pu",
      "t."
    ],
    [
      "out",
      "put."
    ],
    [
      "heat",
      "."
    ],
    [
      "o",
      "b"
    ],
    [
      "m",
      "att"
    ],
    [
      "l",
      "y"
    ],
    [
      "our",
      "s."
    ],
    [
      "t",
      "an"
    ],
    [
      "or",
      "tan"
    ],
    [
      "imp",
      "ortan"
    ],
    [
      "curren",
      "t."
    ],
    [
      "pe",
      "d"
    ],
    [
      "ped",
      "al"
    ],
    [
      "d",
      "id"
    ],
    [
      "a",
      "s"
    ],
    [
      "a",
      "g"
    ],
    [
      "feel",
      "ing"
    ],
    [
      "to",
      "day."
    ],
    [
      "pe",
      "op"
    ],
    [
      "lo",
      "ve"
    ],
    [
      "do",
      "ing"
    ],
    [
      "s",
      "ide"
    ],
    [
      "in",
      "side"
    ],
    [
      "k",
      "ing"
    ],
    [
      "ab",
      "out"
    ],
    [
      "juice",
      "."
    ],
    [
      "watt",
      "s."
    ],
    [
      "h",
      "ur"
    ],
    [
      "per",
      "f"
    ],
    [
      "perf",
      "ec"
    ],
    [
      "power",
      "."
    ],
    [
      "m",
      "us"
    ],
    [
      "e",
      "."
    ],
    [
      "full",
      "."
    ],
    [
      "re",
      "a"
    ],
    [
      "energ",
      "y."
    ],
    [
      "force",
      "."
    ],
    [
      "c",
      "it"
    ],
    [
      "hur",
      "t"
    ],
    [
      "we",
      "ll"
    ],
    [
      "l",
      "ight"
    ],
    [
      "go",
      "od"
    ],
    [
      "y",
      "ste"
    ],
    [
      "yste",
      "m"
    ],
    [
      "s",
      "ystem"
    ],
    [
      "wi",
      "th"
    ],
    [
      "t",
      "urn"
    ],
    [
      "any",
      "thing"
    ],
    [
      "w",
      "at"
    ],
    [
      "de",
      "al"
    ],
    [
      "l",
      "p"
    ],
    [
      "he",
      "lp"
    ],
    [
      "feed",
      "s"
    ],
    [
      "mp",
      "t"
    ],
    [
      "e",
      "mpt"
    ],
    [
      "e",
      "ve"
    ],
    [
      "n",
      "et"
    ],
    [
      "net",
      "work"
    ],
    [
      "pp",
      "en"
    ],
    [
      "ha",
      "ppen"
    ],
    [
      "f",
      "r"
    ],
    [
      "l",
      "i"
    ],
    [
      "p",
      "lea"
    ],
    [
      "plea",
      "se"
    ],
    [
      "se",
      "at"
    ],
    [
      "en",
      "d"
    ],
    [
      "wh",
      "o"
    ],
    [
      "s",
      "ee"
    ],
    [
      "s",
      "p"
    ],
    [
      "dr",
      "ink"
    ],
    [
      "cit",
      "y"
    ],
    [
      "in",
      "e"
    ],
    [
      "curren",
      "t"
    ],
    [
      "r",
      "ong"
    ],
    [
      "p",
      "ut"
    ],
    [
      "out",
      "put"
    ],
    [
      "watt",
      "s"
    ],
    [
      "w",
      "ay"
    ],
    [
      "re",
      "e"
    ],
    [
      "ag",
      "ree"
    ],
    [
      "energ",
      "y"
    ],
    [
      "gr",
      "id"
    ],
    [
      "perfec",
      "t."
    ],
    [
      "b",
      "urn"
    ],
    [
      "light",
      "s"
    ],
    [
      "eat",
      "ing"
    ],
    [
      "ou",
      "t."
    ],
    [
      "f",
      "ore"
    ],
    [
      "are",
      "."
    ],
    [
      "is",
      "."
    ],
    [
      "l",
      "un"
    ],
    [
      "ar",
      "m"
    ],
    [
      "c",
      "r"
    ],
    [
      "ta",
      "king"
    ],
    [
      "mus",
      "c"
    ],
    [
      "musc",
      "l"
    ],
    [
      "muscl",
      "es"
    ],
    [
      "th",
      "ink"
    ],
    [
      "l",
      "eed"
    ],
    [
      "b",
      "leed"
    ],
    [
      "le",
      "gs"
    ],
    [
      "b",
      "rea"
    ],
    [
      "y",
      "e"
    ],
    [
      "ye",
      "t."
    ],
    [
      "ou",
      "g"
    ],
    [
      "oug",
      "h"
    ],
    [
      "en",
      "ough"
    ],
    [
      "yes",
      "!"
    ],
    [
      "q",
      "u"
    ],
    [
      "om",
      "ing"
    ],
    [
      "m",
      "any"
    ],
    [
      "c",
      "oming"
    ],
    [
      "t",
      "ire"
    ],
    [
      "tire",
      "d"
    ],
    [
      "th",
      "er"
    ],
    [
      "o",
      "ther"
    ],
    [
      "lun",
      "gs"
    ],
    [
      "i",
      "c"
    ],
    [
      "ac",
      "k"
    ],
    [
      "arm",
      "s"
    ],
    [
      "the",
      "n"
    ],
    [
      "lea",
      "ves"
    ],
    [
      "happen",
      "s"
    ],
    [
      "empt",
      "y"
    ],
    [
      "v",
      "or"
    ],
    [
      "vor",
      "it"
    ],
    [
      "vorit",
      "e."
    ],
    [
      "fa",
      "vorite."
    ],
    [
      "mu",
      "st"
    ],
    [
      "li",
      "eve"
    ],
    [
      "hard",
      "."
    ],
    [
      "feed",
      "ing"
    ],
    [
      "be",
      "lieve"
    ],
    [
      "matt",
      "er"
    ],
    [
      "ta",
      "ste"
    ],
    [
      "m",
      "a"
    ],
    [
      "ma",
      "ch"
    ],
    [
      "wat",
      "ch"
    ],
    [
      "w",
      "rong"
    ],
    [
      "pu",
      "mp"
    ],
    [
      "deal",
      "."
    ],
    [
      "re",
      "qu"
    ],
    [
      "lea",
      "st"
    ],
    [
      "o",
      "me"
    ],
    [
      "fore",
      "."
    ],
    [
      "be",
      "fore."
    ],
    [
      "r",
      "ight"
    ],
    [
      "p",
      "a"
    ],
    [
      "pa",
      "in"
    ],
    [
      "on",
      "ly"
    ],
    [
      "fee",
      "t"
    ],
    [
      "pr",
      "ob"
    ],
    [
      "prob",
      "le"
    ],
    [
      "proble",
      "m"
    ],
    [
      "problem",
      "."
    ],
    [
      "ver",
      "y"
    ],
    [
      "k",
      "."
    ],
    [
      "importan",
      "t."
    ],
    [
      "f",
      "t"
    ],
    [
      "as",
      "k."
    ],
    [
      "our",
      "s"
    ],
    [
      "now",
      "."
    ],
    [
      "want",
      "s"
    ],
    [
      "turn",
      "s"
    ],
    [
      "p",
      "ing."
    ],
    [
      "op",
      "ping."
    ],
    [
      "lo",
      "ves"
    ],
    [
      "dr",
      "opping."
    ],
    [
      "peop",
      "le."
    ],
    [
      "ob",
      "."
    ],
    [
      "j",
      "ob."
    ],
    [
      "help",
      "ing"
    ],
    [
      "feeling",
      "s"
    ],
    [
      "x",
      "ac"
    ],
    [
      "xac",
      "t"
    ],
    [
      "xact",
      "ly"
    ],
    [
      "wan",
      "t."
    ],
    [
      "importan",
      "t"
    ],
    [
      "hear",
      "t"
    ],
    [
      "e",
      "xactly"
    ],
    [
      "cr",
      "ank"
    ],
    [
      "ok",
      "."
    ],
    [
      "r",
      "ide"
    ],
    [
      "here",
      "."
    ],
    [
      "r",
      "ig"
    ],
    [
      "no",
      "."
    ],
    [
      "fr",
      "om"
    ],
    [
      "wh",
      "e"
    ],
    [
      "whe",
      "re"
    ],
    [
      "this",
      "."
    ],
    [
      "peop",
      "le"
    ],
    [
      "agree",
      "d"
    ],
    [
      "matt",
      "er."
    ],
    [
      "work",
      "ing."
    ],
    [
      "sp",
      "in"
    ],
    [
      "your",
      "se"
    ],
    [
      "yourse",
      "l"
    ],
    [
      "yoursel",
      "f"
    ],
    [
      "yourself",
      "."
    ],
    [
      "te",
      "ll"
    ],
    [
      "t",
      "i"
    ],
    [
      "need",
      "s"
    ],
    [
      "te",
      "rest"
    ],
    [
      "terest",
      "ing."
    ],
    [
      "in",
      "teresting."
    ],
    [
      "fa",
      "st"
    ],
    [
      "w",
      "in"
    ],
    [
      "win",
      "s."
    ],
    [
      "eat",
      "s."
    ],
    [
      "much",
      "."
    ],
    [
      "mach",
      "ine"
    ],
    [
      "wh",
      "ee"
    ],
    [
      "whee",
      "l"
    ],
    [
      "long",
      "s"
    ],
    [
      "be",
      "longs"
    ],
    [
      "s",
      "ha"
    ],
    [
      "h",
      "un"
    ],
    [
      "well",
      "."
    ],
    [
      "pr",
      "ou"
    ],
    [
      "prou",
      "d"
    ],
    [
      "proud",
      "."
    ],
    [
      "at",
      "e"
    ],
    [
      "pedal",
      "s"
    ],
    [
      "d",
      "y"
    ],
    [
      "every",
      "thing"
    ],
    [
      "a",
      "d"
    ],
    [
      "do",
      "n"
    ],
    [
      "pu",
      "re"
    ],
    [
      "ti",
      "me"
    ],
    [
      "s",
      "l"
    ],
    [
      "le",
      "an"
    ],
    [
      "c",
      "lean"
    ],
    [
      "to",
      "m"
    ],
    [
      "tom",
      "or"
    ],
    [
      "tomor",
      "r"
    ],
    [
      "tomorr",
      "ow"
    ],
    [
      "ste",
      "ad"
    ],
    [
      "sha",
      "king"
    ],
    [
      "in",
      "stead"
    ],
    [
      "hun",
      "gr"
    ],
    [
      "fast",
      "er"
    ],
    [
      "l",
      "d"
    ],
    [
      "w",
      "a"
    ],
    [
      "wa",
      "it"
    ],
    [
      "th",
      "i"
    ],
    [
      "thi",
      "r"
    ],
    [
      "thir",
      "st"
    ],
    [
      "sl",
      "eep"
    ],
    [
      "o",
      "ver"
    ],
    [
      "es",
      "per"
    ],
    [
      "d",
      "esper"
    ],
    [
      "we",
      "at"
    ],
    [
      "s",
      "weat"
    ],
    [
      "rest",
      "."
    ],
    [
      "re",
      "c"
    ],
    [
      "rec",
      "i"
    ],
    [
      "reci",
      "ate"
    ],
    [
      "pp",
      "reciate"
    ],
    [
      "don",
      "e"
    ],
    [
      "a",
      "ppreciate"
    ],
    [
      "r",
      "i"
    ],
    [
      "ri",
      "ch"
    ],
    [
      "mus",
      "ic"
    ],
    [
      "st",
      "s"
    ],
    [
      "requ",
      "e"
    ],
    [
      "reque",
      "sts"
    ],
    [
      "dy",
      "ing"
    ],
    [
      "brea",
      "k"
    ],
    [
      "f",
      "all"
    ],
    [
      "f",
      "ire"
    ],
    [
      "u",
      "es"
    ],
    [
      "ues",
      "s"
    ],
    [
      "s",
      "n"
    ],
    [
      "sn",
      "ack"
    ],
    [
      "o",
      "ice"
    ],
    [
      "g",
      "uess"
    ],
    [
      "ch",
      "oice"
    ],
    [
      "ag",
      "on"
    ],
    [
      "st",
      "ar"
    ],
    [
      "star",
      "v"
    ],
    [
      "brea",
      "the"
    ],
    [
      "b",
      "ut"
    ],
    [
      "wat",
      "er"
    ],
    [
      "o",
      "in"
    ],
    [
      "j",
      "oin"
    ],
    [
      "i",
      "end"
    ],
    [
      "fr",
      "iend"
    ],
    [
      "f",
      "ine"
    ],
    [
      "er",
      "y"
    ],
    [
      "b",
      "att"
    ],
    [
      "batt",
      "ery"
    ],
    [
      "pr",
      "om"
    ],
    [
      "prom",
      "is"
    ],
    [
      "promis",
      "e"
    ],
    [
      "le",
      "ft"
    ],
    [
      "hurt",
      "s"
    ],
    [
      "f",
      "for"
    ],
    [
      "e",
      "ffor"
    ],
    [
      "c",
      "ome"
    ],
    [
      "b",
      "ack"
    ],
    [
      "watch",
      "ing"
    ],
    [
      "sp",
      "end"
    ],
    [
      "re",
      "at"
    ],
    [
      "ore",
      "d"
    ],
    [
      "g",
      "reat"
    ],
    [
      "b",
      "ored"
    ],
    [
      "who",
      "le"
    ],
    [
      "wh",
      "i"
    ],
    [
      "whi",
      "le"
    ],
    [
      "op",
      "e"
    ],
    [
      "h",
      "ope"
    ],
    [
      "be",
      "st"
    ],
    [
      "b",
      "it"
    ],
    [
      "te",
      "ar"
    ],
    [
      "s",
      "ic"
    ],
    [
      "sic",
      "k"
    ],
    [
      "stop",
      "p"
    ],
    [
      "stopp",
      "ing"
    ],
    [
      "hungr",
      "y."
    ],
    [
      "st",
      "ore"
    ],
    [
      "s",
      "ay"
    ],
    [
      "h",
      "ome"
    ],
    [
      "t",
      "t"
    ],
    [
      "tt",
      "er"
    ],
    [
      "other",
      "s"
    ],
    [
      "m",
      "and"
    ],
    [
      "mand",
      "s"
    ],
    [
      "lea",
      "ve"
    ],
    [
      "l",
      "ike"
    ],
    [
      "de",
      "mands"
    ],
    [
      "be",
      "tter"
    ],
    [
      "wait",
      "ing."
    ],
    [
      "ut",
      "es"
    ],
    [
      "m",
      "in"
    ],
    [
      "min",
      "utes"
    ],
    [
      "f",
      "ive"
    ],
    [
      "empt",
      "y."
    ],
    [
      "s",
      "or"
    ],
    [
      "sor",
      "b"
    ],
    [
      "po",
      "in"
    ],
    [
      "poin",
      "t"
    ],
    [
      "p",
      "l"
    ],
    [
      "pl",
      "a"
    ],
    [
      "pla",
      "ce"
    ],
    [
      "l",
      "se"
    ],
    [
      "g",
      "ing"
    ],
    [
      "g",
      "ging"
    ],
    [
      "e",
      "lse"
    ],
    [
      "be",
      "gging"
    ],
    [
      "any",
      "one"
    ],
    [
      "ab",
      "sorb"
    ],
    [
      "thirst",
      "y."
    ],
    [
      "ee",
      "n"
    ],
    [
      "b",
      "een"
    ],
    [
      "s",
      "on"
    ],
    [
      "per",
      "son"
    ],
    [
      "ft",
      "er"
    ],
    [
      "eve",
      "n"
    ],
    [
      "al",
      "one"
    ],
    [
      "a",
      "fter"
    ],
    [
      "wi",
      "ce"
    ],
    [
      "t",
      "wice"
    ],
    [
      "n",
      "a"
    ],
    [
      "na",
      "me"
    ],
    [
      "long",
      "er"
    ],
    [
      "l",
      "at"
    ],
    [
      "lat",
      "er"
    ],
    [
      "with",
      "out"
    ],
    [
      "w",
      "ou"
    ],
    [
      "wou",
      "ld"
    ],
    [
      "g",
      "one"
    ],
    [
      "ve",
      "st"
    ],
    [
      "requ",
      "ire"
    ],
    [
      "require",
      "s"
    ],
    [
      "perfec",
      "t"
    ],
    [
      "har",
      "vest"
    ],
    [
      "un",
      "s"
    ],
    [
      "r",
      "uns"
    ],
    [
      "o",
      "ar"
    ],
    [
      "oar",
      "d"
    ],
    [
      "lea",
      "d"
    ],
    [
      "lead",
      "er"
    ],
    [
      "leader",
      "b"
    ],
    [
      "leaderb",
      "oard"
    ],
    [
      "agon",
      "y"
    ],
    [
      "rea",
      "d"
    ],
    [
      "read",
      "y."
    ],
    [
      "desper",
      "at"
    ],
    [
      "desperat",
      "e."
    ],
    [
      "o",
      "ll"
    ],
    [
      "oll",
      "ec"
    ],
    [
      "c",
      "ollec"
    ],
    [
      "bike",
      "."
    ],
    [
      "starv",
      "ing."
    ],
    [
      "effor",
      "t"
    ],
    [
      "li",
      "ves"
    ],
    [
      "happen",
      "ing"
    ],
    [
      "keep",
      "ing"
    ],
    [
      "absorb",
      "ing"
    ],
    [
      "tear",
      "s"
    ],
    [
      "store",
      "ing"
    ],
    [
      "take",
      "ing"
    ],
    [
      "st",
      "rong"
    ],
    [
      "strong",
      "er."
    ],
    [
      "light",
      "s."
    ],
    [
      "drink",
      "ing"
    ],
    [
      "system",
      "."
    ],
    [
      "harvest",
      "ing"
    ],
    [
      "t",
      "ing"
    ],
    [
      "collec",
      "ting"
    ],
    [
      "network",
      "."
    ],
    [
      "deep",
      "er."
    ],
    [
      "long",
      "er."
    ],
    [
      "everyone",
      "."
    ],
    [
      "pure",
      "."
    ],
    [
      "push",
      "."
    ],
    [
      "grid",
      "."
    ],
    [
      "good",
      "."
    ],
    [
      "ur",
      "th"
    ],
    [
      "urth",
      "er."
    ],
    [
      "f",
      "urther."
    ],
    [
      "pedal",
      "."
    ],
    [
      "cit",
      "y."
    ],
    [
      "pump",
      "."
    ],
    [
      "clean",
      "."
    ],
    [
      "fast",
      "er."
    ],
    [
      "g",
      "s."
    ],
    [
      "cr",
      "am"
    ],
    [
      "cram",
      "p"
    ],
    [
      "go",
      "."
    ],
    [
      "spin",
      "."
    ],
    [
      "rig",
      "."
    ],
    [
      "un",
      "ti"
    ],
    [
      "unti",
      "l"
    ],
    [
      "rich",
      "."
    ],
    [
      "crank",
      "."
    ],
    [
      "ver",
      "."
    ],
    [
      "great",
      "."
    ],
    [
      "fore",
      "ver."
    ],
    [
      "desper",
      "ate"
    ],
    [
      "time",
      "."
    ],
    [
      "ride",
      "."
    ],
    [
      "re",
      "d"
    ],
    [
      "mach",
      "in"
    ],
    [
      "machin",
      "e."
    ],
    [
      "hun",
      "d"
    ],
    [
      "hund",
      "red"
    ],
    [
      "sha",
      "ke"
    ],
    [
      "seat",
      "."
    ],
    [
      "pedal",
      "s."
    ],
    [
      "hear",
      "t."
    ],
    [
      "ac",
      "he"
    ],
    [
      "rea",
      "dy"
    ],
    [
      "wor",
      "ld"
    ],
    [
      "wheel",
      "."
    ],
    [
      "i",
      "l"
    ],
    [
      "fa",
      "il"
    ],
    [
      "sweat",
      "."
    ],
    [
      "n",
      "igh"
    ],
    [
      "nigh",
      "t."
    ],
    [
      "muscles",
      "."
    ],
    [
      "cramp",
      "."
    ],
    [
      "starv",
      "ing"
    ],
    [
      "fee",
      "t."
    ],
    [
      "thirst",
      "y"
    ],
    [
      "st",
      "."
    ],
    [
      "o",
      "st."
    ],
    [
      "m",
      "ost."
    ],
    [
      "al",
      "most."
    ],
    [
      "tear",
      "s."
    ],
    [
      "effor",
      "t."
    ],
    [
      "way",
      "s."
    ],
    [
      "wait",
      "ing"
    ],
    [
      "suffer",
      "ing."
    ],
    [
      "le",
      "gs."
    ],
    [
      "hur",
      "t."
    ],
    [
      "hungr",
      "y"
    ],
    [
      "bod",
      "y."
    ],
    [
      "al",
      "ways."
    ],
    [
      "store",
      "."
    ],
    [
      "harvest",
      "."
    ],
    [
      "eat",
      "."
    ],
    [
      "agon",
      "y."
    ],
    [
      "pain",
      "."
    ],
    [
      "arm",
      "s."
    ],
    [
      "lun",
      "gs."
    ],
    [
      "keep",
      "."
    ],
    [
      "burn",
      "."
    ],
    [
      "t",
      "en"
    ],
    [
      "shake",
      "."
    ],
    [
      "drink",
      "."
    ],
    [
      "fail",
      "."
    ],
    [
      "bleed",
      "."
    ],
    [
      "absorb",
      "."
    ],
    [
      "we",
      "a"
    ],
    [
      "wea",
      "k"
    ],
    [
      "don",
      "e."
    ],
    [
      "qu",
      "it"
    ],
    [
      "collec",
      "t."
    ],
    [
      "take",
      "."
    ],
    [
      "ache",
      "."
    ],
    [
      "gr",
      "y"
    ],
    [
      "an",
      "gry"
    ],
    [
      "w",
      "n"
    ],
    [
      "sl",
      "ow"
    ],
    [
      "s",
      "ad"
    ],
    [
      "do",
      "wn"
    ],
    [
      "r",
      "ok"
    ],
    [
      "rok",
      "en"
    ],
    [
      "b",
      "roken"
    ],
    [
      "s",
      "care"
    ],
    [
      "scare",
      "d"
    ]
  ],
  "vocab": {
    "[PAD]": 0,
    "[UNK]": 1,
    "[H]": 2,
    "[A]": 3,
    "[END]": 4,
    "!": 5,
    ".": 6,
    "a": 7,
    "b": 8,
    "c": 9,
    "d": 10,
    "e": 11,
    "f": 12,
    "g": 13,
    "h": 14,
    "i": 15,
    "j": 16,
    "k": 17,
    "l": 18,
    "m": 19,
    "n": 20,
    "o": 21,
    "p": 22,
    "q": 23,
    "r": 24,
    "s": 25,
    "t": 26,
    "u": 27,
    "v": 28,
    "w": 29,
    "x": 30,
    "y": 31,
    "ou": 32,
    "th": 33,
    "re": 34,
    "you": 35,
    "in": 36,
    "at": 37,
    "is": 38,
    "we": 39,
    "ing": 40,
    "an": 41,
    "st": 42,
    "er": 43,
    "no": 44,
    "ee": 45,
    "do": 46,
    "the": 47,
    "wh": 48,
    "are": 49,
    "es": 50,
    "not": 51,
    "t.": 52,
    "your": 53,
    "ore": 54,
    "to": 55,
    "on": 56,
    "ll": 57,
    "that": 58,
    "more": 59,
    "me": 60,
    "ve": 61,
    "op": 62,
    "le": 63,
    "ha": 64,
    "or": 65,
    "more.": 66,
    "so": 67,
    "go": 68,
    "stop": 69,
    "us": 70,
    "en": 71,
    "what": 72,
    "this": 73,
    "ing.": 74,
    "he": 75,
    "if": 76,
    "yes": 77,
    "eep": 78,
    "it.": 79,
    "it": 80,
    "ver": 81,
    "wi": 82,
    "be": 83,
    "ke": 84,
    "can": 85,
    "fee": 86,
    "am": 87,
    "ur": 88,
    "ever": 89,
    "stop.": 90,
    "will": 91,
    "ce": 92,
    "ig": 93,
    "ay": 94,
    "for": 95,
    "yes.": 96,
    "mp": 97,
    "out": 98,
    "ju": 99,
    "s.": 100,
    "every": 101,
    "er.": 102,
    "ut": 103,
    "have": 104,
    "eed": 105,
    "id": 106,
    "har": 107,
    "wan": 108,
    "ive": 109,
    "ake": 110,
    "ush": 111,
    "push": 112,
    "att": 113,
    "of": 114,
    "ch": 115,
    "hard": 116,
    "keep": 117,
    "give": 118,
    "feel": 119,
    "one": 120,
    "want": 121,
    "when": 122,
    "need": 123,
    "you.": 124,
    "our": 125,
    "ar": 126,
    "any": 127,
    "there": 128,
    "lea": 129,
    "thing": 130,
    "od": 131,
    "imp": 132,
    "al": 133,
    "se": 134,
    "ong": 135,
    "mean": 136,
    "y.": 137,
    "thing.": 138,
    "deep": 139,
    "harder.": 140,
    "utif": 141,
    "utifu": 142,
    "utiful": 143,
    "bea": 144,
    "beautiful": 145,
    "why": 146,
    "pe": 147,
    "po": 148,
    "deep.": 149,
    "dig": 150,
    "ice": 151,
    "that.": 152,
    "et": 153,
    "pu": 154,
    "heat": 155,
    "my": 156,
    "ike": 157,
    "here": 158,
    "stay": 159,
    "on.": 160,
    "going.": 161,
    "just": 162,
    "mu": 163,
    "all": 164,
    "lif": 165,
    "life": 166,
    "ull": 167,
    "full": 168,
    "urre": 169,
    "urren": 170,
    "curren": 171,
    "ank": 172,
    "wer": 173,
    "power": 174,
    "ste": 175,
    "le.": 176,
    "ow": 177,
    "wor": 178,
    "juice": 179,
    "goes": 180,
    "and": 181,
    "watt": 182,
    "rest": 183,
    "bike": 184,
    "means": 185,
    "erg": 186,
    "energ": 187,
    "us.": 188,
    "does": 189,
    "work": 190,
    "make": 191,
    "force": 192,
    "urn": 193,
    "per": 194,
    "everyone": 195,
    "lo": 196,
    "long": 197,
    "take": 198,
    "igh": 199,
    "ide": 200,
    "bod": 201,
    "un": 202,
    "let": 203,
    "ight": 204,
    "feed": 205,
    "some": 206,
    "om": 207,
    "now": 208,
    "ink": 209,
    "body": 210,
    "how": 211,
    "ok": 212,
    "ves": 213,
    "dr": 214,
    "much": 215,
    "thank": 216,
    "pr": 217,
    "simp": 218,
    "simple.": 219,
    "care": 220,
    "ab": 221,
    "uf": 222,
    "uff": 223,
    "uffer": 224,
    "suffer": 225,
    "te": 226,
    "off": 227,
    "eat": 228,
    "going": 229,
    "ta": 230,
    "gs": 231,
    "get": 232,
    "ac": 233,
    "ec": 234,
    "suffering": 235,
    "beautiful.": 236,
    "ire": 237,
    "fa": 238,
    "hear": 239,
    "pp": 240,
    "de": 241,
    "into": 242,
    "day": 243,
    "day.": 244,
    "nothing.": 245,
    "everything.": 246,
    "gr": 247,
    "something": 248,
    "put.": 249,
    "output.": 250,
    "heat.": 251,
    "ob": 252,
    "matt": 253,
    "ly": 254,
    "ours.": 255,
    "tan": 256,
    "ortan": 257,
    "importan": 258,
    "current.": 259,
    "ped": 260,
    "pedal": 261,
    "did": 262,
    "as": 263,
    "ag": 264,
    "feeling": 265,
    "today.": 266,
    "peop": 267,
    "love": 268,
    "doing": 269,
    "side": 270,
    "inside": 271,
    "king": 272,
    "about": 273,
    "juice.": 274,
    "watts.": 275,
    "hur": 276,
    "perf": 277,
    "perfec": 278,
    "power.": 279,
    "mus": 280,
    "e.": 281,
    "full.": 282,
    "rea": 283,
    "energy.": 284,
    "force.": 285,
    "cit": 286,
    "hurt": 287,
    "well": 288,
    "light": 289,
    "good": 290,
    "yste": 291,
    "ystem": 292,
    "system": 293,
    "with": 294,
    "turn": 295,
    "anything": 296,
    "wat": 297,
    "deal": 298,
    "lp": 299,
    "help": 300,
    "feeds": 301,
    "mpt": 302,
    "empt": 303,
    "eve": 304,
    "net": 305,
    "network": 306,
    "ppen": 307,
    "happen": 308,
    "fr": 309,
    "li": 310,
    "plea": 311,
    "please": 312,
    "seat": 313,
    "end": 314,
    "who": 315,
    "see": 316,
    "sp": 317,
    "drink": 318,
    "city": 319,
    "ine": 320,
    "current": 321,
    "rong": 322,
    "put": 323,
    "output": 324,
    "watts": 325,
    "way": 326,
    "ree": 327,
    "agree": 328,
    "energy": 329,
    "grid": 330,
    "perfect.": 331,
    "burn": 332,
    "lights": 333,
    "eating": 334,
    "out.": 335,
    "fore": 336,
    "are.": 337,
    "is.": 338,
    "lun": 339,
    "arm": 340,
    "cr": 341,
    "taking": 342,
    "musc": 343,
    "muscl": 344,
    "muscles": 345,
    "think": 346,
    "leed": 347,
    "bleed": 348,
    "legs": 349,
    "brea": 350,
    "ye": 351,
    "yet.": 352,
    "oug": 353,
    "ough": 354,
    "enough": 355,
    "yes!": 356,
    "qu": 357,
    "oming": 358,
    "many": 359,
    "coming": 360,
    "tire": 361,
    "tired": 362,
    "ther": 363,
    "other": 364,
    "lungs": 365,
    "ic": 366,
    "ack": 367,
    "arms": 368,
    "then": 369,
    "leaves": 370,
    "happens": 371,
    "empty": 372,
    "vor": 373,
    "vorit": 374,
    "vorite.": 375,
    "favorite.": 376,
    "must": 377,
    "lieve": 378,
    "hard.": 379,
    "feeding": 380,
    "believe": 381,
    "matter": 382,
    "taste": 383,
    "ma": 384,
    "mach": 385,
    "watch": 386,
    "wrong": 387,
    "pump": 388,
    "deal.": 389,
    "requ": 390,
    "least": 391,
    "ome": 392,
    "fore.": 393,
    "before.": 394,
    "right": 395,
    "pa": 396,
    "pain": 397,
    "only": 398,
    "feet": 399,
    "prob": 400,
    "proble": 401,
    "problem": 402,
    "problem.": 403,
    "very": 404,
    "k.": 405,
    "important.": 406,
    "ft": 407,
    "ask.": 408,
    "ours": 409,
    "now.": 410,
    "wants": 411,
    "turns": 412,
    "ping.": 413,
    "opping.": 414,
    "loves": 415,
    "dropping.": 416,
    "people.": 417,
    "ob.": 418,
    "job.": 419,
    "helping": 420,
    "feelings": 421,
    "xac": 422,
    "xact": 423,
    "xactly": 424,
    "want.": 425,
    "important": 426,
    "heart": 427,
    "exactly": 428,
    "crank": 429,
    "ok.": 430,
    "ride": 431,
    "here.": 432,
    "rig": 433,
    "no.": 434,
    "from": 435,
    "whe": 436,
    "where": 437,
    "this.": 438,
    "people": 439,
    "agreed": 440,
    "matter.": 441,
    "working.": 442,
    "spin": 443,
    "yourse": 444,
    "yoursel": 445,
    "yourself": 446,
    "yourself.": 447,
    "tell": 448,
    "ti": 449,
    "needs": 450,
    "terest": 451,
    "teresting.": 452,
    "interesting.": 453,
    "fast": 454,
    "win": 455,
    "wins.": 456,
    "eats.": 457,
    "much.": 458,
    "machine": 459,
    "whee": 460,
    "wheel": 461,
    "longs": 462,
    "belongs": 463,
    "sha": 464,
    "hun": 465,
    "well.": 466,
    "prou": 467,
    "proud": 468,
    "proud.": 469,
    "ate": 470,
    "pedals": 471,
    "dy": 472,
    "everything": 473,
    "ad": 474,
    "don": 475,
    "pure": 476,
    "time": 477,
    "sl": 478,
    "lean": 479,
    "clean": 480,
    "tom": 481,
    "tomor": 482,
    "tomorr": 483,
    "tomorrow": 484,
    "stead": 485,
    "shaking": 486,
    "instead": 487,
    "hungr": 488,
    "faster": 489,
    "ld": 490,
    "wa": 491,
    "wait": 492,
    "thi": 493,
    "thir": 494,
    "thirst": 495,
    "sleep": 496,
    "over": 497,
    "esper": 498,
    "desper": 499,
    "weat": 500,
    "sweat": 501,
    "rest.": 502,
    "rec": 503,
    "reci": 504,
    "reciate": 505,
    "ppreciate": 506,
    "done": 507,
    "appreciate": 508,
    "ri": 509,
    "rich": 510,
    "music": 511,
    "sts": 512,
    "reque": 513,
    "requests": 514,
    "dying": 515,
    "break": 516,
    "fall": 517,
    "fire": 518,
    "ues": 519,
    "uess": 520,
    "sn": 521,
    "snack": 522,
    "oice": 523,
    "guess": 524,
    "choice": 525,
    "agon": 526,
    "star": 527,
    "starv": 528,
    "breathe": 529,
    "but": 530,
    "water": 531,
    "oin": 532,
    "join": 533,
    "iend": 534,
    "friend": 535,
    "fine": 536,
    "ery": 537,
    "batt": 538,
    "battery": 539,
    "prom": 540,
    "promis": 541,
    "promise": 542,
    "left": 543,
    "hurts": 544,
    "ffor": 545,
    "effor": 546,
    "come": 547,
    "back": 548,
    "watching": 549,
    "spend": 550,
    "reat": 551,
    "ored": 552,
    "great": 553,
    "bored": 554,
    "whole": 555,
    "whi": 556,
    "while": 557,
    "ope": 558,
    "hope": 559,
    "best": 560,
    "bit": 561,
    "tear": 562,
    "sic": 563,
    "sick": 564,
    "stopp": 565,
    "stopping": 566,
    "hungry.": 567,
    "store": 568,
    "say": 569,
    "home": 570,
    "tt": 571,
    "tter": 572,
    "others": 573,
    "mand": 574,
    "mands": 575,
    "leave": 576,
    "like": 577,
    "demands": 578,
    "better": 579,
    "waiting.": 580,
    "utes": 581,
    "min": 582,
    "minutes": 583,
    "five": 584,
    "empty.": 585,
    "sor": 586,
    "sorb": 587,
    "poin": 588,
    "point": 589,
    "pl": 590,
    "pla": 591,
    "place": 592,
    "lse": 593,
    "ging": 594,
    "gging": 595,
    "else": 596,
    "begging": 597,
    "anyone": 598,
    "absorb": 599,
    "thirsty.": 600,
    "een": 601,
    "been": 602,
    "son": 603,
    "person": 604,
    "fter": 605,
    "even": 606,
    "alone": 607,
    "after": 608,
    "wice": 609,
    "twice": 610,
    "na": 611,
    "name": 612,
    "longer": 613,
    "lat": 614,
    "later": 615,
    "without": 616,
    "wou": 617,
    "would": 618,
    "gone": 619,
    "vest": 620,
    "require": 621,
    "requires": 622,
    "perfect": 623,
    "harvest": 624,
    "uns": 625,
    "runs": 626,
    "oar": 627,
    "oard": 628,
    "lead": 629,
    "leader": 630,
    "leaderb": 631,
    "leaderboard": 632,
    "agony": 633,
    "read": 634,
    "ready.": 635,
    "desperat": 636,
    "desperate.": 637,
    "oll": 638,
    "ollec": 639,
    "collec": 640,
    "bike.": 641,
    "starving.": 642,
    "effort": 643,
    "lives": 644,
    "happening": 645,
    "keeping": 646,
    "absorbing": 647,
    "tears": 648,
    "storeing": 649,
    "takeing": 650,
    "strong": 651,
    "stronger.": 652,
    "lights.": 653,
    "drinking": 654,
    "system.": 655,
    "harvesting": 656,
    "ting": 657,
    "collecting": 658,
    "network.": 659,
    "deeper.": 660,
    "longer.": 661,
    "everyone.": 662,
    "pure.": 663,
    "push.": 664,
    "grid.": 665,
    "good.": 666,
    "urth": 667,
    "urther.": 668,
    "further.": 669,
    "pedal.": 670,
    "city.": 671,
    "pump.": 672,
    "clean.": 673,
    "faster.": 674,
    "gs.": 675,
    "cram": 676,
    "cramp": 677,
    "go.": 678,
    "spin.": 679,
    "rig.": 680,
    "unti": 681,
    "until": 682,
    "rich.": 683,
    "crank.": 684,
    "ver.": 685,
    "great.": 686,
    "forever.": 687,
    "desperate": 688,
    "time.": 689,
    "ride.": 690,
    "red": 691,
    "machin": 692,
    "machine.": 693,
    "hund": 694,
    "hundred": 695,
    "shake": 696,
    "seat.": 697,
    "pedals.": 698,
    "heart.": 699,
    "ache": 700,
    "ready": 701,
    "world": 702,
    "wheel.": 703,
    "il": 704,
    "fail": 705,
    "sweat.": 706,
    "nigh": 707,
    "night.": 708,
    "muscles.": 709,
    "cramp.": 710,
    "starving": 711,
    "feet.": 712,
    "thirsty": 713,
    "st.": 714,
    "ost.": 715,
    "most.": 716,
    "almost.": 717,
    "tears.": 718,
    "effort.": 719,
    "ways.": 720,
    "waiting": 721,
    "suffering.": 722,
    "legs.": 723,
    "hurt.": 724,
    "hungry": 725,
    "body.": 726,
    "always.": 727,
    "store.": 728,
    "harvest.": 729,
    "eat.": 730,
    "agony.": 731,
    "pain.": 732,
    "arms.": 733,
    "lungs.": 734,
    "keep.": 735,
    "burn.": 736,
    "ten": 737,
    "shake.": 738,
    "drink.": 739,
    "fail.": 740,
    "bleed.": 741,
    "absorb.": 742,
    "wea": 743,
    "weak": 744,
    "done.": 745,
    "quit": 746,
    "collect.": 747,
    "take.": 748,
    "ache.": 749,
    "gry": 750,
    "angry": 751,
    "wn": 752,
    "slow": 753,
    "sad": 754,
    "down": 755,
    "rok": 756,
    "roken": 757,
    "broken": 758,
    "scare": 759,
    "scared": 760
  }
}