{
  "vocab_size": 1024,
  "special_tokens": [
    "[PAD]",
    "[UNK]",
    "[H]",
    "[A]",
    "[END]"
  ],
  "base_chars": [
    ".",
    "a",
    "b",
    "c",
    "d",
    "e",
    "f",
    "g",
    "h",
    "i",
    "j",
    "k",
    "l",
    "m",
    "n",
    "o",
    "p",
    "q",
    "r",
    "s",
    "t",
    "u",
    "v",
    "w",
    "x",
    "y"
  ],
  "merges": [
    [
      "o",
      "u"
    ],
    [
      "t",
      "h"
    ],
    [
      "r",
      "e"
    ],
    [
      "y",
      "ou"
    ],
    [
      "i",
      "n"
    ],
    [
      "a",
      "t"
    ],
    [
      "i",
      "s"
    ],
    [
      "e",
      "r"
    ],
    [
      "th",
      "e"
    ],
    [
      "d",
      "o"
    ],
    [
      "a",
      "n"
    ],
    [
      "e",
      "e"
    ],
    [
      "w",
      "h"
    ],
    [
      "s",
      "t"
    ],
    [
      "n",
      "o"
    ],
    [
      "in",
      "g"
    ],
    [
      "w",
      "e"
    ],
    [
      "you",
      "r"
    ],
    [
      "o",
      "n"
    ],
    [
      "a",
      "re"
    ],
    [
      "l",
      "l"
    ],
    [
      "no",
      "t"
    ],
    [
      "o",
      "re"
    ],
    [
      "e",
      "s"
    ],
    [
      "i",
      "t"
    ],
    [
      "m",
      "ore"
    ],
    [
      "t",
      "o"
    ],
    [
      "v",
      "e"
    ],
    [
      "o",
      "p"
    ],
    [
      "o",
      "r"
    ],
    [
      "ee",
      "p"
    ],
    [
      "u",
      "s"
    ],
    [
      "more",
      "."
    ],
    [
      "l",
      "e"
    ],
    [
      "g",
      "o"
    ],
    [
      "m",
      "e"
    ],
    [
      "th",
      "at"
    ],
    [
      "st",
      "op"
    ],
    [
      "er",
      "."
    ],
    [
      "e",
      "n"
    ],
    [
      "wh",
      "at"
    ],
    [
      "i",
      "g"
    ],
    [
      "a",
      "r"
    ],
    [
      "w",
      "i"
    ],
    [
      "s",
      "o"
    ],
    [
      "a",
      "y"
    ],
    [
      "h",
      "e"
    ],
    [
      "v",
      "er"
    ],
    [
      "ing",
      "."
    ],
    [
      "b",
      "e"
    ],
    [
      "k",
      "eep"
    ],
    [
      "wi",
      "ll"
    ],
    [
      "th",
      "is"
    ],
    [
      "ee",
      "d"
    ],
    [
      "g",
      "i"
    ],
    [
      "e",
      "."
    ],
    [
      "n",
      "t"
    ],
    [
      "c",
      "an"
    ],
    [
      "an",
      "t"
    ],
    [
      "m",
      "y"
    ],
    [
      "f",
      "u"
    ],
    [
      "o",
      "w"
    ],
    [
      "stop",
      "."
    ],
    [
      "c",
      "h"
    ],
    [
      "gi",
      "ve"
    ],
    [
      "ver",
      "y"
    ],
    [
      "m",
      "p"
    ],
    [
      "n",
      "eed"
    ],
    [
      "u",
      "t"
    ],
    [
      "j",
      "u"
    ],
    [
      "it",
      "."
    ],
    [
      "f",
      "or"
    ],
    [
      "u",
      "r"
    ],
    [
      "on",
      "g"
    ],
    [
      "us",
      "h"
    ],
    [
      "p",
      "ush"
    ],
    [
      "s",
      "."
    ],
    [
      "no",
      "w"
    ],
    [
      "i",
      "l"
    ],
    [
      "ou",
      "t"
    ],
    [
      "a",
      "k"
    ],
    [
      "w",
      "ant"
    ],
    [
      "ll",
      "."
    ],
    [
      "i",
      "d"
    ],
    [
      "y",
      "."
    ],
    [
      "wh",
      "y"
    ],
    [
      "ig",
      "h"
    ],
    [
      "igh",
      "t"
    ],
    [
      "a",
      "m"
    ],
    [
      "ee",
      "l"
    ],
    [
      "do",
      "es"
    ],
    [
      "h",
      "ar"
    ],
    [
      "c",
      "e"
    ],
    [
      "l",
      "ong"
    ],
    [
      "a",
      "ve"
    ],
    [
      "a",
      "l"
    ],
    [
      "p",
      "e"
    ],
    [
      "e",
      "very"
    ],
    [
      "an",
      "y"
    ],
    [
      "r",
      "o"
    ],
    [
      "y",
      "es"
    ],
    [
      "u",
      "nt"
    ],
    [
      "unt",
      "il"
    ],
    [
      "e",
      "t"
    ],
    [
      "at",
      "t"
    ],
    [
      "har",
      "d"
    ],
    [
      "wh",
      "en"
    ],
    [
      "l",
      "i"
    ],
    [
      "on",
      "."
    ],
    [
      "m",
      "u"
    ],
    [
      "th",
      "ing"
    ],
    [
      "hard",
      "er."
    ],
    [
      "o",
      "f"
    ],
    [
      "d",
      "eep"
    ],
    [
      "go",
      "ing."
    ],
    [
      "s",
      "e"
    ],
    [
      "you",
      "."
    ],
    [
      "yes",
      "."
    ],
    [
      "h",
      "ave"
    ],
    [
      "st",
      "ay"
    ],
    [
      "t",
      "ak"
    ],
    [
      "ou",
      "r"
    ],
    [
      "fu",
      "ll."
    ],
    [
      "w",
      "or"
    ],
    [
      "p",
      "ow"
    ],
    [
      "on",
      "e"
    ],
    [
      "deep",
      "."
    ],
    [
      "d",
      "ig"
    ],
    [
      "an",
      "k"
    ],
    [
      "i",
      "mp"
    ],
    [
      "he",
      "at"
    ],
    [
      "an",
      "d"
    ],
    [
      "f",
      "e"
    ],
    [
      "e",
      "re"
    ],
    [
      "mu",
      "ch"
    ],
    [
      "pe",
      "d"
    ],
    [
      "ped",
      "al"
    ],
    [
      "i",
      "k"
    ],
    [
      "b",
      "ik"
    ],
    [
      "ju",
      "st"
    ],
    [
      "ro",
      "m"
    ],
    [
      "a",
      "ll"
    ],
    [
      "f",
      "eel"
    ],
    [
      "ur",
      "re"
    ],
    [
      "urre",
      "nt"
    ],
    [
      "c",
      "urrent"
    ],
    [
      "wh",
      "o"
    ],
    [
      "er",
      "g"
    ],
    [
      "en",
      "erg"
    ],
    [
      "wor",
      "k"
    ],
    [
      "o",
      "d"
    ],
    [
      "f",
      "ore"
    ],
    [
      "ju",
      "i"
    ],
    [
      "w",
      "att"
    ],
    [
      "p",
      "ut"
    ],
    [
      "out",
      "put"
    ],
    [
      "f",
      "rom"
    ],
    [
      "st",
      "e"
    ],
    [
      "li",
      "fe"
    ],
    [
      "le",
      "."
    ],
    [
      "le",
      "a"
    ],
    [
      "r",
      "id"
    ],
    [
      "j",
      "o"
    ],
    [
      "wh",
      "ere"
    ],
    [
      "b",
      "."
    ],
    [
      "h",
      "ow"
    ],
    [
      "jo",
      "b."
    ],
    [
      "u",
      "n"
    ],
    [
      "a",
      "c"
    ],
    [
      "c",
      "e."
    ],
    [
      "g",
      "et"
    ],
    [
      "he",
      "re"
    ],
    [
      "a",
      "b"
    ],
    [
      "pow",
      "er"
    ],
    [
      "us",
      "."
    ],
    [
      "ut",
      "i"
    ],
    [
      "uti",
      "fu"
    ],
    [
      "utifu",
      "l"
    ],
    [
      "t",
      "e"
    ],
    [
      "of",
      "f"
    ],
    [
      "be",
      "a"
    ],
    [
      "bea",
      "utiful"
    ],
    [
      "r",
      "ight"
    ],
    [
      "bik",
      "e"
    ],
    [
      "se",
      "at"
    ],
    [
      "c",
      "it"
    ],
    [
      "or",
      "t"
    ],
    [
      "go",
      "es"
    ],
    [
      "ar",
      "m"
    ],
    [
      "en",
      "d"
    ],
    [
      "v",
      "es"
    ],
    [
      "th",
      "ank"
    ],
    [
      "s",
      "imp"
    ],
    [
      "simp",
      "le."
    ],
    [
      "fore",
      "."
    ],
    [
      "do",
      "ing"
    ],
    [
      "be",
      "fore."
    ],
    [
      "now",
      "."
    ],
    [
      "o",
      "k"
    ],
    [
      "wh",
      "eel"
    ],
    [
      "re",
      "st"
    ],
    [
      "he",
      "ar"
    ],
    [
      "long",
      "er."
    ],
    [
      "d",
      "r"
    ],
    [
      "c",
      "are"
    ],
    [
      "g",
      "s"
    ],
    [
      "l",
      "ight"
    ],
    [
      "m",
      "a"
    ],
    [
      "ma",
      "ch"
    ],
    [
      "mach",
      "in"
    ],
    [
      "r",
      "ig"
    ],
    [
      "te",
      "ll"
    ],
    [
      "energ",
      "y"
    ],
    [
      "go",
      "ing"
    ],
    [
      "e",
      "ver"
    ],
    [
      "in",
      "k"
    ],
    [
      "watt",
      "s"
    ],
    [
      "s",
      "ay"
    ],
    [
      "the",
      "re"
    ],
    [
      "much",
      "."
    ],
    [
      "y",
      "ste"
    ],
    [
      "yste",
      "m"
    ],
    [
      "s",
      "ystem"
    ],
    [
      "e",
      "at"
    ],
    [
      "for",
      "ce"
    ],
    [
      "every",
      "one"
    ],
    [
      "cit",
      "y"
    ],
    [
      "jui",
      "ce"
    ],
    [
      "n",
      "et"
    ],
    [
      "net",
      "work"
    ],
    [
      "p",
      "u"
    ],
    [
      "p",
      "p"
    ],
    [
      "a",
      "pp"
    ],
    [
      "l",
      "y"
    ],
    [
      "p",
      "ing"
    ],
    [
      "p",
      "er"
    ],
    [
      "s",
      "p"
    ],
    [
      "wi",
      "th"
    ],
    [
      "ur",
      "t"
    ],
    [
      "h",
      "urt"
    ],
    [
      "c",
      "o"
    ],
    [
      "s",
      "l"
    ],
    [
      "do",
      "n"
    ],
    [
      "in",
      "to"
    ],
    [
      "tak",
      "ing"
    ],
    [
      "b",
      "od"
    ],
    [
      "light",
      "s"
    ],
    [
      "c",
      "r"
    ],
    [
      "m",
      "ay"
    ],
    [
      "may",
      "be"
    ],
    [
      "g",
      "rid"
    ],
    [
      "s",
      "h"
    ],
    [
      "ort",
      "ant"
    ],
    [
      "imp",
      "ortant"
    ],
    [
      "go",
      "od"
    ],
    [
      "d",
      "ay"
    ],
    [
      "day",
      "."
    ],
    [
      "le",
      "t"
    ],
    [
      "cr",
      "ank"
    ],
    [
      "every",
      "thing"
    ],
    [
      "re",
      "a"
    ],
    [
      "heat",
      "."
    ],
    [
      "pe",
      "op"
    ],
    [
      "don",
      "e."
    ],
    [
      "so",
      "me"
    ],
    [
      "i",
      "f"
    ],
    [
      "th",
      "an"
    ],
    [
      "mp",
      "t"
    ],
    [
      "e",
      "mpt"
    ],
    [
      "that",
      "."
    ],
    [
      "m",
      "us"
    ],
    [
      "p",
      "lea"
    ],
    [
      "plea",
      "se"
    ],
    [
      "th",
      "ing."
    ],
    [
      "l",
      "un"
    ],
    [
      "f",
      "a"
    ],
    [
      "sp",
      "in"
    ],
    [
      "pu",
      "mp"
    ],
    [
      "e",
      "ve"
    ],
    [
      "pow",
      "er."
    ],
    [
      "machin",
      "e"
    ],
    [
      "ur",
      "n"
    ],
    [
      "v",
      "er."
    ],
    [
      "jui",
      "ce."
    ],
    [
      "pedal",
      "s"
    ],
    [
      "t",
      "."
    ],
    [
      "who",
      "le"
    ],
    [
      "q",
      "u"
    ],
    [
      "m",
      "att"
    ],
    [
      "a",
      "s"
    ],
    [
      "f",
      "ee"
    ],
    [
      "tak",
      "e"
    ],
    [
      "l",
      "o"
    ],
    [
      "c",
      "l"
    ],
    [
      "ro",
      "b"
    ],
    [
      "p",
      "rob"
    ],
    [
      "dr",
      "ink"
    ],
    [
      "s",
      "ee"
    ],
    [
      "energ",
      "y."
    ],
    [
      "d",
      "id"
    ],
    [
      "current",
      "."
    ],
    [
      "bod",
      "y"
    ],
    [
      "output",
      "."
    ],
    [
      "long",
      "er"
    ],
    [
      "ak",
      "e"
    ],
    [
      "at",
      "e"
    ],
    [
      "s",
      "it"
    ],
    [
      "watt",
      "s."
    ],
    [
      "some",
      "thing"
    ],
    [
      "mus",
      "cl"
    ],
    [
      "muscl",
      "es"
    ],
    [
      "your",
      "s"
    ],
    [
      "m",
      "ake"
    ],
    [
      "to",
      "day."
    ],
    [
      "our",
      "s."
    ],
    [
      "for",
      "ce."
    ],
    [
      "r",
      "ong"
    ],
    [
      "ab",
      "out"
    ],
    [
      "d",
      "e"
    ],
    [
      "no",
      "thing."
    ],
    [
      "it",
      "y."
    ],
    [
      "il",
      "ity."
    ],
    [
      "f",
      "ac"
    ],
    [
      "fac",
      "ility."
    ],
    [
      "u",
      "f"
    ],
    [
      "uf",
      "f"
    ],
    [
      "uff",
      "er"
    ],
    [
      "s",
      "uffer"
    ],
    [
      "work",
      "ing."
    ],
    [
      "me",
      "an"
    ],
    [
      "beautiful",
      "."
    ],
    [
      "a",
      "ll."
    ],
    [
      "the",
      "n"
    ],
    [
      "t",
      "urn"
    ],
    [
      "keep",
      "ing"
    ],
    [
      "he",
      "l"
    ],
    [
      "suffer",
      "ing"
    ],
    [
      "le",
      "gs"
    ],
    [
      "empt",
      "y"
    ],
    [
      "bik",
      "e."
    ],
    [
      "want",
      "."
    ],
    [
      "rea",
      "the"
    ],
    [
      "b",
      "reathe"
    ],
    [
      "lun",
      "gs"
    ],
    [
      "mu",
      "st"
    ],
    [
      "li",
      "eve"
    ],
    [
      "be",
      "lieve"
    ],
    [
      "fore",
      "ver."
    ],
    [
      "sl",
      "eep"
    ],
    [
      "lo",
      "ve"
    ],
    [
      "le",
      "ave"
    ],
    [
      "eat",
      "s."
    ],
    [
      "fee",
      "t"
    ],
    [
      "arm",
      "s"
    ],
    [
      "stop",
      "ping"
    ],
    [
      "s",
      "a"
    ],
    [
      "w",
      "arm"
    ],
    [
      "warm",
      "."
    ],
    [
      "co",
      "m"
    ],
    [
      "l",
      "eed"
    ],
    [
      "b",
      "leed"
    ],
    [
      "any",
      "thing"
    ],
    [
      "h",
      "app"
    ],
    [
      "happ",
      "en"
    ],
    [
      "hear",
      "t"
    ],
    [
      "what",
      "ever"
    ],
    [
      "tak",
      "es"
    ],
    [
      "on",
      "ly"
    ],
    [
      "t",
      "a"
    ],
    [
      "ta",
      "ste"
    ],
    [
      "feel",
      "ing"
    ],
    [
      "de",
      "al"
    ],
    [
      "x",
      "ac"
    ],
    [
      "xac",
      "t"
    ],
    [
      "xact",
      "ly"
    ],
    [
      "e",
      "xactly"
    ],
    [
      "v",
      "or"
    ],
    [
      "vor",
      "it"
    ],
    [
      "vorit",
      "e."
    ],
    [
      "re",
      "c"
    ],
    [
      "rec",
      "i"
    ],
    [
      "reci",
      "ate"
    ],
    [
      "lea",
      "ves"
    ],
    [
      "fa",
      "vorite."
    ],
    [
      "app",
      "reciate"
    ],
    [
      "say",
      "s"
    ],
    [
      "gi",
      "ves"
    ],
    [
      "rid",
      "e"
    ],
    [
      "w",
      "ay"
    ],
    [
      "m",
      "any"
    ],
    [
      "turn",
      "s"
    ],
    [
      "here",
      "."
    ],
    [
      "f",
      "in"
    ],
    [
      "mean",
      "s"
    ],
    [
      "g",
      "s."
    ],
    [
      "fu",
      "ll"
    ],
    [
      "s",
      "end"
    ],
    [
      "send",
      "s"
    ],
    [
      "important",
      "."
    ],
    [
      "t",
      "i"
    ],
    [
      "p",
      "ing."
    ],
    [
      "op",
      "ping."
    ],
    [
      "dr",
      "opping."
    ],
    [
      "s",
      "id"
    ],
    [
      "sid",
      "e"
    ],
    [
      "in",
      "side"
    ],
    [
      "we",
      "ll."
    ],
    [
      "r",
      "ou"
    ],
    [
      "rou",
      "d"
    ],
    [
      "roud",
      "."
    ],
    [
      "p",
      "roud."
    ],
    [
      "matt",
      "er"
    ],
    [
      "i",
      "on"
    ],
    [
      "peop",
      "le."
    ],
    [
      "l",
      "at"
    ],
    [
      "hel",
      "ping"
    ],
    [
      "peop",
      "le"
    ],
    [
      "sh",
      "ort"
    ],
    [
      "short",
      "er"
    ],
    [
      "prob",
      "ab"
    ],
    [
      "probab",
      "l"
    ],
    [
      "probabl",
      "y."
    ],
    [
      "sa",
      "id"
    ],
    [
      "g",
      "r"
    ],
    [
      "a",
      "g"
    ],
    [
      "keep",
      "."
    ],
    [
      "happen",
      "ing"
    ],
    [
      "w",
      "n"
    ],
    [
      "sl",
      "ow"
    ],
    [
      "do",
      "wn"
    ],
    [
      "w",
      "at"
    ],
    [
      "wat",
      "ch"
    ],
    [
      "b",
      "ut"
    ],
    [
      "th",
      "er"
    ],
    [
      "o",
      "ther"
    ],
    [
      "u",
      "p"
    ],
    [
      "p",
      "a"
    ],
    [
      "pa",
      "in"
    ],
    [
      "ight",
      "ing"
    ],
    [
      "f",
      "ighting"
    ],
    [
      "com",
      "es"
    ],
    [
      "be",
      "comes"
    ],
    [
      "per",
      "s"
    ],
    [
      "ok",
      "."
    ],
    [
      "l",
      "d"
    ],
    [
      "f",
      "i"
    ],
    [
      "k",
      "."
    ],
    [
      "as",
      "k."
    ],
    [
      "u",
      "es"
    ],
    [
      "ues",
      "s"
    ],
    [
      "o",
      "i"
    ],
    [
      "oi",
      "ce"
    ],
    [
      "machin",
      "e."
    ],
    [
      "g",
      "uess"
    ],
    [
      "ch",
      "oice"
    ],
    [
      "w",
      "rong"
    ],
    [
      "t",
      "ere"
    ],
    [
      "tere",
      "st"
    ],
    [
      "terest",
      "ing."
    ],
    [
      "pedal",
      "."
    ],
    [
      "in",
      "teresting."
    ],
    [
      "th",
      "ink"
    ],
    [
      "f",
      "eed"
    ],
    [
      "deal",
      "."
    ],
    [
      "un",
      "s"
    ],
    [
      "r",
      "uns"
    ],
    [
      "p",
      "l"
    ],
    [
      "pl",
      "a"
    ],
    [
      "pla",
      "ce"
    ],
    [
      "on",
      "es"
    ],
    [
      "wheel",
      "."
    ],
    [
      "ti",
      "me"
    ],
    [
      "matt",
      "er."
    ],
    [
      "h",
      "un"
    ],
    [
      "seat",
      "."
    ],
    [
      "i",
      "c"
    ],
    [
      "v",
      "ant"
    ],
    [
      "vant",
      "."
    ],
    [
      "re",
      "le"
    ],
    [
      "rele",
      "vant."
    ],
    [
      "qu",
      "e"
    ],
    [
      "que",
      "st"
    ],
    [
      "deep",
      "er."
    ],
    [
      "care",
      "."
    ],
    [
      "ac",
      "k"
    ],
    [
      "want",
      "s"
    ],
    [
      "prob",
      "le"
    ],
    [
      "proble",
      "m"
    ],
    [
      "problem",
      "."
    ],
    [
      "feeling",
      "s"
    ],
    [
      "th",
      "er."
    ],
    [
      "r",
      "ther."
    ],
    [
      "r",
      "i"
    ],
    [
      "fu",
      "rther."
    ],
    [
      "st",
      "rong"
    ],
    [
      "strong",
      "er."
    ],
    [
      "no",
      "."
    ],
    [
      "per",
      "fe"
    ],
    [
      "perfe",
      "c"
    ],
    [
      "s",
      "or"
    ],
    [
      "hun",
      "gr"
    ],
    [
      "go",
      "."
    ],
    [
      "ab",
      "sor"
    ],
    [
      "w",
      "a"
    ],
    [
      "wa",
      "it"
    ],
    [
      "rig",
      "."
    ],
    [
      "crank",
      "."
    ],
    [
      "spin",
      "."
    ],
    [
      "need",
      "s"
    ],
    [
      "cit",
      "y."
    ],
    [
      "push",
      "."
    ],
    [
      "st",
      "er."
    ],
    [
      "fa",
      "ster."
    ],
    [
      "es",
      "per"
    ],
    [
      "d",
      "esper"
    ],
    [
      "a",
      "d"
    ],
    [
      "st",
      "ar"
    ],
    [
      "star",
      "v"
    ],
    [
      "rid",
      "e."
    ],
    [
      "qu",
      "it"
    ],
    [
      "pump",
      "."
    ],
    [
      "pedal",
      "s."
    ],
    [
      "on",
      "e."
    ],
    [
      "every",
      "one."
    ],
    [
      "rea",
      "d"
    ],
    [
      "network",
      "."
    ],
    [
      "fin",
      "e"
    ],
    [
      "ee",
      "n"
    ],
    [
      "b",
      "een"
    ],
    [
      "y",
      "et"
    ],
    [
      "yet",
      "."
    ],
    [
      "ou",
      "g"
    ],
    [
      "oug",
      "h"
    ],
    [
      "en",
      "ough"
    ],
    [
      "eat",
      "ing"
    ],
    [
      "ll",
      "e"
    ],
    [
      "lle",
      "c"
    ],
    [
      "f",
      "for"
    ],
    [
      "e",
      "ffor"
    ],
    [
      "co",
      "llec"
    ],
    [
      "we",
      "at"
    ],
    [
      "st",
      "ore"
    ],
    [
      "s",
      "weat"
    ],
    [
      "ve",
      "st"
    ],
    [
      "sh",
      "i"
    ],
    [
      "shi",
      "p"
    ],
    [
      "ship",
      "."
    ],
    [
      "re",
      "lat"
    ],
    [
      "relat",
      "ion"
    ],
    [
      "relation",
      "ship."
    ],
    [
      "hungr",
      "y."
    ],
    [
      "har",
      "vest"
    ],
    [
      "ag",
      "on"
    ],
    [
      "system",
      "."
    ],
    [
      "light",
      "s."
    ],
    [
      "empt",
      "y."
    ],
    [
      "lun",
      "gs."
    ],
    [
      "wait",
      "ing."
    ],
    [
      "te",
      "ar"
    ],
    [
      "pers",
      "on"
    ],
    [
      "eve",
      "n"
    ],
    [
      "th",
      "i"
    ],
    [
      "thi",
      "r"
    ],
    [
      "thir",
      "st"
    ],
    [
      "long",
      "s"
    ],
    [
      "be",
      "longs"
    ],
    [
      "absor",
      "b"
    ],
    [
      "wor",
      "ld"
    ],
    [
      "rest",
      "."
    ],
    [
      "l",
      "se"
    ],
    [
      "e",
      "lse"
    ],
    [
      "any",
      "one"
    ],
    [
      "grid",
      "."
    ],
    [
      "o",
      "ver."
    ],
    [
      "op",
      "e"
    ],
    [
      "h",
      "ope"
    ],
    [
      "desper",
      "at"
    ],
    [
      "desperat",
      "e."
    ],
    [
      "arm",
      "s."
    ],
    [
      "watch",
      "ing"
    ],
    [
      "perfec",
      "t."
    ],
    [
      "ore",
      "d"
    ],
    [
      "b",
      "ored"
    ],
    [
      "other",
      "s"
    ],
    [
      "li",
      "k"
    ],
    [
      "lik",
      "e"
    ],
    [
      "fee",
      "t."
    ],
    [
      "starv",
      "ing."
    ],
    [
      "muscles",
      "."
    ],
    [
      "ut",
      "es"
    ],
    [
      "read",
      "y."
    ],
    [
      "m",
      "in"
    ],
    [
      "min",
      "utes"
    ],
    [
      "fi",
      "ve"
    ],
    [
      "agon",
      "y"
    ],
    [
      "le",
      "gs."
    ],
    [
      "hear",
      "t."
    ],
    [
      "tear",
      "s"
    ],
    [
      "lo",
      "ves"
    ],
    [
      "bod",
      "y."
    ],
    [
      "feed",
      "ing"
    ],
    [
      "effor",
      "t"
    ],
    [
      "b",
      "urn"
    ],
    [
      "al",
      "one"
    ],
    [
      "we",
      "ll"
    ],
    [
      "o",
      "ar"
    ],
    [
      "oar",
      "d"
    ],
    [
      "lea",
      "d"
    ],
    [
      "lead",
      "er"
    ],
    [
      "leader",
      "b"
    ],
    [
      "leaderb",
      "oard"
    ],
    [
      "er",
      "y"
    ],
    [
      "collec",
      "t"
    ],
    [
      "b",
      "att"
    ],
    [
      "batt",
      "ery"
    ],
    [
      "to",
      "m"
    ],
    [
      "tom",
      "or"
    ],
    [
      "tomor",
      "r"
    ],
    [
      "tomorr",
      "ow"
    ],
    [
      "ste",
      "ad"
    ],
    [
      "sh",
      "ak"
    ],
    [
      "n",
      "ight"
    ],
    [
      "night",
      "."
    ],
    [
      "in",
      "stead"
    ],
    [
      "rom",
      "is"
    ],
    [
      "romis",
      "e"
    ],
    [
      "quest",
      "ion"
    ],
    [
      "p",
      "romise"
    ],
    [
      "co",
      "me"
    ],
    [
      "b",
      "ack"
    ],
    [
      "wor",
      "r"
    ],
    [
      "worr",
      "y"
    ],
    [
      "wi",
      "ce"
    ],
    [
      "way",
      "s."
    ],
    [
      "t",
      "wice"
    ],
    [
      "s",
      "ic"
    ],
    [
      "sic",
      "k"
    ],
    [
      "out",
      "."
    ],
    [
      "lat",
      "er"
    ],
    [
      "fin",
      "d"
    ],
    [
      "every",
      "thing."
    ],
    [
      "al",
      "ways."
    ],
    [
      "wh",
      "i"
    ],
    [
      "whi",
      "le"
    ],
    [
      "t",
      "t"
    ],
    [
      "tt",
      "er"
    ],
    [
      "pu",
      "re"
    ],
    [
      "m",
      "and"
    ],
    [
      "mand",
      "s"
    ],
    [
      "lea",
      "st"
    ],
    [
      "de",
      "mands"
    ],
    [
      "be",
      "tter"
    ],
    [
      "time",
      "."
    ],
    [
      "ri",
      "ch"
    ],
    [
      "our",
      "s"
    ],
    [
      "hel",
      "p"
    ],
    [
      "shak",
      "ing"
    ],
    [
      "keep",
      "s"
    ],
    [
      "be",
      "st"
    ],
    [
      "b",
      "it"
    ],
    [
      "y",
      "ing"
    ],
    [
      "d",
      "ying"
    ],
    [
      "re",
      "at"
    ],
    [
      "n",
      "a"
    ],
    [
      "na",
      "me"
    ],
    [
      "hurt",
      "s"
    ],
    [
      "g",
      "reat"
    ],
    [
      "feed",
      "s"
    ],
    [
      "can",
      "not"
    ],
    [
      "v",
      "ing"
    ],
    [
      "mus",
      "ic"
    ],
    [
      "le",
      "an"
    ],
    [
      "gi",
      "ving"
    ],
    [
      "fi",
      "re"
    ],
    [
      "c",
      "lean"
    ],
    [
      "thirst",
      "y."
    ],
    [
      "re",
      "e"
    ],
    [
      "is",
      "."
    ],
    [
      "f",
      "all"
    ],
    [
      "ag",
      "ree"
    ],
    [
      "s",
      "n"
    ],
    [
      "sn",
      "ack"
    ],
    [
      "ri",
      "end"
    ],
    [
      "re",
      "quest"
    ],
    [
      "request",
      "s"
    ],
    [
      "jo",
      "in"
    ],
    [
      "f",
      "riend"
    ],
    [
      "sp",
      "end"
    ],
    [
      "com",
      "ing"
    ],
    [
      "burn",
      "ing"
    ],
    [
      "o",
      "me"
    ],
    [
      "h",
      "ome"
    ],
    [
      "g",
      "ing"
    ],
    [
      "g",
      "ging"
    ],
    [
      "be",
      "gging"
    ],
    [
      "are",
      "."
    ],
    [
      "then",
      "."
    ],
    [
      "h",
      "ate"
    ],
    [
      "with",
      "out"
    ],
    [
      "w",
      "ou"
    ],
    [
      "wou",
      "ld"
    ],
    [
      "pers",
      "on."
    ],
    [
      "re",
      "d"
    ],
    [
      "re",
      "ak"
    ],
    [
      "b",
      "reak"
    ],
    [
      "a",
      "way"
    ],
    [
      "sa",
      "d"
    ],
    [
      "s",
      "care"
    ],
    [
      "scare",
      "d"
    ],
    [
      "re",
      "s"
    ],
    [
      "re",
      "qu"
    ],
    [
      "requ",
      "i"
    ],
    [
      "requi",
      "res"
    ],
    [
      "no",
      "thing"
    ],
    [
      "li",
      "ves"
    ],
    [
      "happen",
      "s."
    ],
    [
      "b",
      "ad"
    ],
    [
      "absorb",
      "ing"
    ],
    [
      "o",
      "ver"
    ],
    [
      "k",
      "now."
    ],
    [
      "ti",
      "red"
    ],
    [
      "don",
      "e"
    ],
    [
      "perfec",
      "t"
    ],
    [
      "gr",
      "y"
    ],
    [
      "an",
      "gry"
    ],
    [
      "ro",
      "k"
    ],
    [
      "rok",
      "en"
    ],
    [
      "b",
      "roken"
    ],
    [
      "drink",
      "ing"
    ],
    [
      "we",
      "ak"
    ],
    [
      "starv",
      "ing"
    ],
    [
      "read",
      "y"
    ],
    [
      "collec",
      "t."
    ],
    [
      "absor",
      "b."
    ],
    [
      "thirst",
      "y"
    ],
    [
      "effor",
      "t."
    ],
    [
      "tak",
      "e."
    ],
    [
      "eat",
      "."
    ],
    [
      "drink",
      "."
    ],
    [
      "desper",
      "ate"
    ],
    [
      "harvest",
      "ing"
    ],
    [
      "u",
      "d"
    ],
    [
      "ud",
      "ing"
    ],
    [
      "store",
      "."
    ],
    [
      "li",
      "ve"
    ],
    [
      "in",
      "cl"
    ],
    [
      "incl",
      "uding"
    ],
    [
      "wait",
      "ing"
    ],
    [
      "sweat",
      "."
    ],
    [
      "pain",
      "."
    ],
    [
      "collect",
      "ing"
    ],
    [
      "harvest",
      "."
    ],
    [
      "store",
      "ing"
    ],
    [
      "take",
      "ing"
    ],
    [
      "hungr",
      "y"
    ],
    [
      "agon",
      "y."
    ],
    [
      "pure",
      "."
    ],
    [
      "suffer",
      "ing."
    ],
    [
      "tear",
      "s."
    ],
    [
      "sleep",
      "."
    ],
    [
      "great",
      "."
    ],
    [
      "t",
      "en"
    ],
    [
      "rich",
      "."
    ],
    [
      "fa",
      "il"
    ],
    [
      "breathe",
      "."
    ],
    [
      "good",
      "."
    ],
    [
      "qu",
      "it."
    ],
    [
      "clean",
      "."
    ],
    [
      "down",
      "."
    ],
    [
      "ac",
      "he"
    ],
    [
      "store",
      "s"
    ],
    [
      "st",
      "."
    ],
    [
      "sh",
      "ake"
    ],
    [
      "o",
      "st."
    ],
    [
      "m",
      "ost."
    ],
    [
      "al",
      "most."
    ],
    [
      "cr",
      "a"
    ],
    [
      "cra",
      "mp"
    ],
    [
      "leave",
      "."
    ],
    [
      "off",
      "."
    ],
    [
      "hun",
      "d"
    ],
    [
      "hund",
      "red"
    ],
    [
      "fail",
      "."
    ],
    [
      "eat",
      "s"
    ],
    [
      "absorb",
      "s"
    ],
    [
      "hurt",
      "."
    ],
    [
      "shak",
      "e."
    ],
    [
      "drink",
      "s"
    ],
    [
      "burn",
      "."
    ],
    [
      "harvest",
      "s"
    ],
    [
      "cramp",
      "."
    ],
    [
      "collect",
      "s"
    ],
    [
      "bleed",
      "."
    ],
    [
      "ache",
      "."
    ]
  ],
  "vocab": {
    "[PAD]": 0,
    "[UNK]": 1,
    "[H]": 2,
    "[A]": 3,
    "[END]": 4,
    ".": 5,
    "a": 6,
    "b": 7,
    "c": 8,
    "d": 9,
    "e": 10,
    "f": 11,
    "g": 12,
    "h": 13,
    "i": 14,
    "j": 15,
    "k": 16,
    "l": 17,
    "m": 18,
    "n": 19,
    "o": 20,
    "p": 21,
    "q": 22,
    "r": 23,
    "s": 24,
    "t": 25,
    "u": 26,
    "v": 27,
    "w": 28,
    "x": 29,
    "y": 30,
    "ou": 31,
    "th": 32,
    "re": 33,
    "you": 34,
    "in": 35,
    "at": 36,
    "is": 37,
    "er": 38,
    "the": 39,
    "do": 40,
    "an": 41,
    "ee": 42,
    "wh": 43,
    "st": 44,
    "no": 45,
    "ing": 46,
    "we": 47,
    "your": 48,
    "on": 49,
    "are": 50,
    "ll": 51,
    "not": 52,
    "ore": 53,
    "es": 54,
    "it": 55,
    "more": 56,
    "to": 57,
    "ve": 58,
    "op": 59,
    "or": 60,
    "eep": 61,
    "us": 62,
    "more.": 63,
    "le": 64,
    "go": 65,
    "me": 66,
    "that": 67,
    "stop": 68,
    "er.": 69,
    "en": 70,
    "what": 71,
    "ig": 72,
    "ar": 73,
    "wi": 74,
    "so": 75,
    "ay": 76,
    "he": 77,
    "ver": 78,
    "ing.": 79,
    "be": 80,
    "keep": 81,
    "will": 82,
    "this": 83,
    "eed": 84,
    "gi": 85,
    "e.": 86,
    "nt": 87,
    "can": 88,
    "ant": 89,
    "my": 90,
    "fu": 91,
    "ow": 92,
    "stop.": 93,
    "ch": 94,
    "give": 95,
    "very": 96,
    "mp": 97,
    "need": 98,
    "ut": 99,
    "ju": 100,
    "it.": 101,
    "for": 102,
    "ur": 103,
    "ong": 104,
    "ush": 105,
    "push": 106,
    "s.": 107,
    "now": 108,
    "il": 109,
    "out": 110,
    "ak": 111,
    "want": 112,
    "ll.": 113,
    "id": 114,
    "y.": 115,
    "why": 116,
    "igh": 117,
    "ight": 118,
    "am": 119,
    "eel": 120,
    "does": 121,
    "har": 122,
    "ce": 123,
    "long": 124,
    "ave": 125,
    "al": 126,
    "pe": 127,
    "every": 128,
    "any": 129,
    "ro": 130,
    "yes": 131,
    "unt": 132,
    "until": 133,
    "et": 134,
    "att": 135,
    "hard": 136,
    "when": 137,
    "li": 138,
    "on.": 139,
    "mu": 140,
    "thing": 141,
    "harder.": 142,
    "of": 143,
    "deep": 144,
    "going.": 145,
    "se": 146,
    "you.": 147,
    "yes.": 148,
    "have": 149,
    "stay": 150,
    "tak": 151,
    "our": 152,
    "full.": 153,
    "wor": 154,
    "pow": 155,
    "one": 156,
    "deep.": 157,
    "dig": 158,
    "ank": 159,
    "imp": 160,
    "heat": 161,
    "and": 162,
    "fe": 163,
    "ere": 164,
    "much": 165,
    "ped": 166,
    "pedal": 167,
    "ik": 168,
    "bik": 169,
    "just": 170,
    "rom": 171,
    "all": 172,
    "feel": 173,
    "urre": 174,
    "urrent": 175,
    "current": 176,
    "who": 177,
    "erg": 178,
    "energ": 179,
    "work": 180,
    "od": 181,
    "fore": 182,
    "jui": 183,
    "watt": 184,
    "put": 185,
    "output": 186,
    "from": 187,
    "ste": 188,
    "life": 189,
    "le.": 190,
    "lea": 191,
    "rid": 192,
    "jo": 193,
    "where": 194,
    "b.": 195,
    "how": 196,
    "job.": 197,
    "un": 198,
    "ac": 199,
    "ce.": 200,
    "get": 201,
    "here": 202,
    "ab": 203,
    "power": 204,
    "us.": 205,
    "uti": 206,
    "utifu": 207,
    "utiful": 208,
    "te": 209,
    "off": 210,
    "bea": 211,
    "beautiful": 212,
    "right": 213,
    "bike": 214,
    "seat": 215,
    "cit": 216,
    "ort": 217,
    "goes": 218,
    "arm": 219,
    "end": 220,
    "ves": 221,
    "thank": 222,
    "simp": 223,
    "simple.": 224,
    "fore.": 225,
    "doing": 226,
    "before.": 227,
    "now.": 228,
    "ok": 229,
    "wheel": 230,
    "rest": 231,
    "hear": 232,
    "longer.": 233,
    "dr": 234,
    "care": 235,
    "gs": 236,
    "light": 237,
    "ma": 238,
    "mach": 239,
    "machin": 240,
    "rig": 241,
    "tell": 242,
    "energy": 243,
    "going": 244,
    "ever": 245,
    "ink": 246,
    "watts": 247,
    "say": 248,
    "there": 249,
    "much.": 250,
    "yste": 251,
    "ystem": 252,
    "system": 253,
    "eat": 254,
    "force": 255,
    "everyone": 256,
    "city": 257,
    "juice": 258,
    "net": 259,
    "network": 260,
    "pu": 261,
    "pp": 262,
    "app": 263,
    "ly": 264,
    "ping": 265,
    "per": 266,
    "sp": 267,
    "with": 268,
    "urt": 269,
    "hurt": 270,
    "co": 271,
    "sl": 272,
    "don": 273,
    "into": 274,
    "taking": 275,
    "bod": 276,
    "lights": 277,
    "cr": 278,
    "may": 279,
    "maybe": 280,
    "grid": 281,
    "sh": 282,
    "ortant": 283,
    "important": 284,
    "good": 285,
    "day": 286,
    "day.": 287,
    "let": 288,
    "crank": 289,
    "everything": 290,
    "rea": 291,
    "heat.": 292,
    "peop": 293,
    "done.": 294,
    "some": 295,
    "if": 296,
    "than": 297,
    "mpt": 298,
    "empt": 299,
    "that.": 300,
    "mus": 301,
    "plea": 302,
    "please": 303,
    "thing.": 304,
    "lun": 305,
    "fa": 306,
    "spin": 307,
    "pump": 308,
    "eve": 309,
    "power.": 310,
    "machine": 311,
    "urn": 312,
    "ver.": 313,
    "juice.": 314,
    "pedals": 315,
    "t.": 316,
    "whole": 317,
    "qu": 318,
    "matt": 319,
    "as": 320,
    "fee": 321,
    "take": 322,
    "lo": 323,
    "cl": 324,
    "rob": 325,
    "prob": 326,
    "drink": 327,
    "see": 328,
    "energy.": 329,
    "did": 330,
    "current.": 331,
    "body": 332,
    "output.": 333,
    "longer": 334,
    "ake": 335,
    "ate": 336,
    "sit": 337,
    "watts.": 338,
    "something": 339,
    "muscl": 340,
    "muscles": 341,
    "yours": 342,
    "make": 343,
    "today.": 344,
    "ours.": 345,
    "force.": 346,
    "rong": 347,
    "about": 348,
    "de": 349,
    "nothing.": 350,
    "ity.": 351,
    "ility.": 352,
    "fac": 353,
    "facility.": 354,
    "uf": 355,
    "uff": 356,
    "uffer": 357,
    "suffer": 358,
    "working.": 359,
    "mean": 360,
    "beautiful.": 361,
    "all.": 362,
    "then": 363,
    "turn": 364,
    "keeping": 365,
    "hel": 366,
    "suffering": 367,
    "legs": 368,
    "empty": 369,
    "bike.": 370,
    "want.": 371,
    "reathe": 372,
    "breathe": 373,
    "lungs": 374,
    "must": 375,
    "lieve": 376,
    "believe": 377,
    "forever.": 378,
    "sleep": 379,
    "love": 380,
    "leave": 381,
    "eats.": 382,
    "feet": 383,
    "arms": 384,
    "stopping": 385,
    "sa": 386,
    "warm": 387,
    "warm.": 388,
    "com": 389,
    "leed": 390,
    "bleed": 391,
    "anything": 392,
    "happ": 393,
    "happen": 394,
    "heart": 395,
    "whatever": 396,
    "takes": 397,
    "only": 398,
    "ta": 399,
    "taste": 400,
    "feeling": 401,
    "deal": 402,
    "xac": 403,
    "xact": 404,
    "xactly": 405,
    "exactly": 406,
    "vor": 407,
    "vorit": 408,
    "vorite.": 409,
    "rec": 410,
    "reci": 411,
    "reciate": 412,
    "leaves": 413,
    "favorite.": 414,
    "appreciate": 415,
    "says": 416,
    "gives": 417,
    "ride": 418,
    "way": 419,
    "many": 420,
    "turns": 421,
    "here.": 422,
    "fin": 423,
    "means": 424,
    "gs.": 425,
    "full": 426,
    "send": 427,
    "sends": 428,
    "important.": 429,
    "ti": 430,
    "ping.": 431,
    "opping.": 432,
    "dropping.": 433,
    "sid": 434,
    "side": 435,
    "inside": 436,
    "well.": 437,
    "rou": 438,
    "roud": 439,
    "roud.": 440,
    "proud.": 441,
    "matter": 442,
    "ion": 443,
    "people.": 444,
    "lat": 445,
    "helping": 446,
    "people": 447,
    "short": 448,
    "shorter": 449,
    "probab": 450,
    "probabl": 451,
    "probably.": 452,
    "said": 453,
    "gr": 454,
    "ag": 455,
    "keep.": 456,
    "happening": 457,
    "wn": 458,
    "slow": 459,
    "down": 460,
    "wat": 461,
    "watch": 462,
    "but": 463,
    "ther": 464,
    "other": 465,
    "up": 466,
    "pa": 467,
    "pain": 468,
    "ighting": 469,
    "fighting": 470,
    "comes": 471,
    "becomes": 472,
    "pers": 473,
    "ok.": 474,
    "ld": 475,
    "fi": 476,
    "k.": 477,
    "ask.": 478,
    "ues": 479,
    "uess": 480,
    "oi": 481,
    "oice": 482,
    "machine.": 483,
    "guess": 484,
    "choice": 485,
    "wrong": 486,
    "tere": 487,
    "terest": 488,
    "teresting.": 489,
    "pedal.": 490,
    "interesting.": 491,
    "think": 492,
    "feed": 493,
    "deal.": 494,
    "uns": 495,
    "runs": 496,
    "pl": 497,
    "pla": 498,
    "place": 499,
    "ones": 500,
    "wheel.": 501,
    "time": 502,
    "matter.": 503,
    "hun": 504,
    "seat.": 505,
    "ic": 506,
    "vant": 507,
    "vant.": 508,
    "rele": 509,
    "relevant.": 510,
    "que": 511,
    "quest": 512,
    "deeper.": 513,
    "care.": 514,
    "ack": 515,
    "wants": 516,
    "proble": 517,
    "problem": 518,
    "problem.": 519,
    "feelings": 520,
    "ther.": 521,
    "rther.": 522,
    "ri": 523,
    "further.": 524,
    "strong": 525,
    "stronger.": 526,
    "no.": 527,
    "perfe": 528,
    "perfec": 529,
    "sor": 530,
    "hungr": 531,
    "go.": 532,
    "absor": 533,
    "wa": 534,
    "wait": 535,
    "rig.": 536,
    "crank.": 537,
    "spin.": 538,
    "needs": 539,
    "city.": 540,
    "push.": 541,
    "ster.": 542,
    "faster.": 543,
    "esper": 544,
    "desper": 545,
    "ad": 546,
    "star": 547,
    "starv": 548,
    "ride.": 549,
    "quit": 550,
    "pump.": 551,
    "pedals.": 552,
    "one.": 553,
    "everyone.": 554,
    "read": 555,
    "network.": 556,
    "fine": 557,
    "een": 558,
    "been": 559,
    "yet": 560,
    "yet.": 561,
    "oug": 562,
    "ough": 563,
    "enough": 564,
    "eating": 565,
    "lle": 566,
    "llec": 567,
    "ffor": 568,
    "effor": 569,
    "collec": 570,
    "weat": 571,
    "store": 572,
    "sweat": 573,
    "vest": 574,
    "shi": 575,
    "ship": 576,
    "ship.": 577,
    "relat": 578,
    "relation": 579,
    "relationship.": 580,
    "hungry.": 581,
    "harvest": 582,
    "agon": 583,
    "system.": 584,
    "lights.": 585,
    "empty.": 586,
    "lungs.": 587,
    "waiting.": 588,
    "tear": 589,
    "person": 590,
    "even": 591,
    "thi": 592,
    "thir": 593,
    "thirst": 594,
    "longs": 595,
    "belongs": 596,
    "absorb": 597,
    "world": 598,
    "rest.": 599,
    "lse": 600,
    "else": 601,
    "anyone": 602,
    "grid.": 603,
    "over.": 604,
    "ope": 605,
    "hope": 606,
    "desperat": 607,
    "desperate.": 608,
    "arms.": 609,
    "watching": 610,
    "perfect.": 611,
    "ored": 612,
    "bored": 613,
    "others": 614,
    "lik": 615,
    "like": 616,
    "feet.": 617,
    "starving.": 618,
    "muscles.": 619,
    "utes": 620,
    "ready.": 621,
    "min": 622,
    "minutes": 623,
    "five": 624,
    "agony": 625,
    "legs.": 626,
    "heart.": 627,
    "tears": 628,
    "loves": 629,
    "body.": 630,
    "feeding": 631,
    "effort": 632,
    "burn": 633,
    "alone": 634,
    "well": 635,
    "oar": 636,
    "oard": 637,
    "lead": 638,
    "leader": 639,
    "leaderb": 640,
    "leaderboard": 641,
    "ery": 642,
    "collect": 643,
    "batt": 644,
    "battery": 645,
    "tom": 646,
    "tomor": 647,
    "tomorr": 648,
    "tomorrow": 649,
    "stead": 650,
    "shak": 651,
    "night": 652,
    "night.": 653,
    "instead": 654,
    "romis": 655,
    "romise": 656,
    "question": 657,
    "promise": 658,
    "come": 659,
    "back": 660,
    "worr": 661,
    "worry": 662,
    "wice": 663,
    "ways.": 664,
    "twice": 665,
    "sic": 666,
    "sick": 667,
    "out.": 668,
    "later": 669,
    "find": 670,
    "everything.": 671,
    "always.": 672,
    "whi": 673,
    "while": 674,
    "tt": 675,
    "tter": 676,
    "pure": 677,
    "mand": 678,
    "mands": 679,
    "least": 680,
    "demands": 681,
    "better": 682,
    "time.": 683,
    "rich": 684,
    "ours": 685,
    "help": 686,
    "shaking": 687,
    "keeps": 688,
    "best": 689,
    "bit": 690,
    "ying": 691,
    "dying": 692,
    "reat": 693,
    "na": 694,
    "name": 695,
    "hurts": 696,
    "great": 697,
    "feeds": 698,
    "cannot": 699,
    "ving": 700,
    "music": 701,
    "lean": 702,
    "giving": 703,
    "fire": 704,
    "clean": 705,
    "thirsty.": 706,
    "ree": 707,
    "is.": 708,
    "fall": 709,
    "agree": 710,
    "sn": 711,
    "snack": 712,
    "riend": 713,
    "request": 714,
    "requests": 715,
    "join": 716,
    "friend": 717,
    "spend": 718,
    "coming": 719,
    "burning": 720,
    "ome": 721,
    "home": 722,
    "ging": 723,
    "gging": 724,
    "begging": 725,
    "are.": 726,
    "then.": 727,
    "hate": 728,
    "without": 729,
    "wou": 730,
    "would": 731,
    "person.": 732,
    "red": 733,
    "reak": 734,
    "break": 735,
    "away": 736,
    "sad": 737,
    "scare": 738,
    "scared": 739,
    "res": 740,
    "requ": 741,
    "requi": 742,
    "requires": 743,
    "nothing": 744,
    "lives": 745,
    "happens.": 746,
    "bad": 747,
    "absorbing": 748,
    "over": 749,
    "know.": 750,
    "tired": 751,
    "done": 752,
    "perfect": 753,
    "gry": 754,
    "angry": 755,
    "rok": 756,
    "roken": 757,
    "broken": 758,
    "drinking": 759,
    "weak": 760,
    "starving": 761,
    "ready": 762,
    "collect.": 763,
    "absorb.": 764,
    "thirsty": 765,
    "effort.": 766,
    "take.": 767,
    "eat.": 768,
    "drink.": 769,
    "desperate": 770,
    "harvesting": 771,
    "ud": 772,
    "uding": 773,
    "store.": 774,
    "live": 775,
    "incl": 776,
    "including": 777,
    "waiting": 778,
    "sweat.": 779,
    "pain.": 780,
    "collecting": 781,
    "harvest.": 782,
    "storeing": 783,
    "takeing": 784,
    "hungry": 785,
    "agony.": 786,
    "pure.": 787,
    "suffering.": 788,
    "tears.": 789,
    "sleep.": 790,
    "great.": 791,
    "ten": 792,
    "rich.": 793,
    "fail": 794,
    "breathe.": 795,
    "good.": 796,
    "quit.": 797,
    "clean.": 798,
    "down.": 799,
    "ache": 800,
    "stores": 801,
    "st.": 802,
    "shake": 803,
    "ost.": 804,
    "most.": 805,
    "almost.": 806,
    "cra": 807,
    "cramp": 808,
    "leave.": 809,
    "off.": 810,
    "hund": 811,
    "hundred": 812,
    "fail.": 813,
    "eats": 814,
    "absorbs": 815,
    "hurt.": 816,
    "shake.": 817,
    "drinks": 818,
    "burn.": 819,
    "harvests": 820,
    "cramp.": 821,
    "collects": 822,
    "bleed.": 823,
    "ache.": 824
  }
}